078e720c
0024cccf
3625182a
56612691
50d305e4
250ab061
744f37e6
02a540a7
28ce63e0
61bcd8fc
74778808
4b07824a
4becfedf
1df7bf28
2816c6ae
3aaf0b8e
0a294006
633f5945
4394f374
7048ae08
7937fd25
2e083ab0
0f408c08
56f6e749
0e1c97e7
5f6b49e7
10921921
535cf26e
09ff5453
5c100f2f
78a41b8e
15efcba8
3e3bbdc5
0c9f705c
24da1628
35359e7c
3221ac45
5c24cc4c
65adbec5
5c5f39ef
6f22c0e8
594df101
6f0166e3
56c55571
53b3f112
28c04dd5
28dc99e3
725b7b99
3006fa36
33a7603e
3b5210c6
727f84d5
6582ebe3
05adea9f
2fb94036
655685fc
5ab968d6
1e6fb724
552f8eef
588d1b3a
719a588a
79aac8c4
3e8172eb
66b24809
56328eb0
473b99fa
5dd3d4d8
7d9787be
719eaae0
547c1220
06db4896
1fc9ae11
2d4acc3a
3f501215
43c8031b
5da3df83
05bc90db
554f004f
16874537
56534299
1d47b8eb
48401054
2966c0f6
06718620
2e8a2d15
4df91575
223add5e
0bdc7d83
0bcb0209
0021c095
11a897d5
606f3833
03756cef
5678e83a
321f365b
330ff94d
49f53023
4f89478d
42493eaa
36368ce7
3b064a51
5475c389
2d4ed109
23c87580
54c70404
04eb44fc
572c0c0f
6b3c09e5
79be43a9
2c5d5a1e
179600f0
7cab458e
6d893a55
57e96770
3c87996c
7afbb9a4
2fd03218
23f4d747
2d3e45c4
1d0e46a5
50eac722
4a316e55
73fd288f
0567cfaa
51b2af0c
15af3d58
73ccdca0
367fcd3b
6e477b54
71d54d4a
7a344de0
5fdd5117
538bb21c
58de9245
3cb409a6
0c3d455c
00c0d1cd
156675f0
7062c6c6
21769c4f
7670aead
6fe59b28
6d59292e
10e435a4
18ec27ef
243c7369
150895f0
0741bf02
335087b4
39a9cd97
46f5121c
57ffc36d
62273126
6994b5b8
15c52867
43fccf0b
3e004b1b
5e397c8f
7a0ca5f5
219c3e6b
3297f2b2
3137f44a
42b4828a
2fc939b4
4134a4c9
5cde270d
60bdb27e
6a3657d2
6f709d33
0da37505
62784b57
63a64e7d
0b006fbf
2f7b3862
7b8726f5
23ecce88
4fe3c22a
3ea1510c
040a9d4f
3ee0924c
5ac02b34
0b8ce43f
3f135a12
5205d3b3
0aeda8bf
21664895
4f8662ec
543cf62f
6d50f747
6f301df0
3dab6c4f
7836fb24
5cf1d5e9
2b798461
7a1ea3de
63bac849
7ba40ad2
78c32883
2b1f0a72
19ec06db
49f5ea65
0847742b
5a61c45e
2b562d59
4f2996dc
09201cb4
2856d3a4
13bd71d0
06f8f702
7dccb8db
0ace818e
54b4b11b
613eb4a6
534bb720
5a32049d
74754826
777acfe8
46a732a2
54d2a093
29b45064
633ed739
1ca0ed6e
15facca7
061fe576
4891309f
10b9ca6a
5d76d797
7b2f0b53
4cec6237
78867bd3
03371062
721e79ce
43372990
028c44dc
7bc7f27d
2f4f7314
06293990
38f2ba59
3d13e8ed
7d340397
5b46b743
1a74cf48
0954656d
379134af
3c992d0d
3e299444
367c95fc
1d9353a3
68a9d5ec
4b49b039
2406ff87
30b9a012
7b3848c6
03d69432
2e780a58
21be8f8f
51c087b5
5e76ec12
6b2edb1d
24a3870c
0a9c5044
3423b975
286bd5d4
541b51e3
7adddeb8
31540195
50780fe4
1ca7f1b2
74543b1a
6812abb6
10c76a4b
0605a077
4caf8fb3
494e453c
3b3da963
06af2ad9
4501cc2b
11ffb3f8
30a39169
2d5ff036
00434fa3
09123457
5d663d39
39da8aec
77aeb803
4e73776d
2b9064a9
006d639a
6d37263a
747b70f4
554fcf2d
0ea1b05e
5d68d3a8
79317547
586faa6e
09195a8f
34a7dabe
5e3d6937
5a1c9516
07db12f7
1fd65bfe
1308ee22
740c4a53
39020012
08d3ded7
6e9b2ee5
7887c35d
23c6f65f
28029ff3
3b34759a
181bcc25
5dadbb0b
032b3d52
44c3ba47
3527a53f
4109efe2
4c6ab112
7a3ee9b8
723aab04
1ef8e0fd
4cbe8c0d
4c14bb6e
620ccf7f
559696c6
2ea9f7d5
5d4d7de8
2373e558
45927149
3cc2d010
211652e9
55443b76
1c1c3fb8
0fe28c16
27369f10
047aa731
4be5c905
6302db2c
0db64474
331282d9
21b83eb6
70c2f3b7
63ef6976
22f8355c
22ce3df6
0dc0e185
73e558c3
5048893b
7c725815
34fc61cb
2ca358ac
2f698d9c
50cfd70c
4d1afad2
3e9c77ef
495f73f9
73835fe4
39feced8
08e8645e
2b84d8ca
4f5f5b29
746c1339
701c9ede
4114c5f3
1ca9f4af
76423766
6d07ee30
1187f73f
617ec796
6a714634
7dfc92a9
15774896
300655a6
4e3169cc
675524ba
1901e5b4
2cac6e31
4dbce9d1
3eee21a0
67e901c6
6bab39f2
054f0060
7580e7d6
785dec67
64dd229d
13cb235f
570fcaf7
32575ee6
1893dcf8
39a86dff
115e6714
57f5be74
1448cd37
7a6a3cbc
6775d9e1
5139d4cf
434d1c8b
5683228b
31a01d06
2c8d6497
69c0746f
1fdbd3eb
6495af40
3c340c44
692f4dfa
330df429
00fd04fe
2df16cbc
7e71af9b
6bae4d69
7d966ff8
4ab092a8
06884646
484c8702
49403021
5f4e0e3d
18a3f34b
04ecfbf5
23d6d682
363507fa
3e4b3986
64b24e2e
74d38cb9
660d03f8
27d4cf24
2f5b884c
663aab8e
68dd8651
4996260e
401c84ed
460400a8
0bb207d3
6d456173
2dcb83a1
60c0b390
4742fda3
49ea1e60
6853d3c0
18e90ee5
7fc65d19
2e8f278b
3e80b458
4bcff1ab
178dd819
12cf1a65
750c9b30
1d345385
3e2a7978
72ee0a05
28785792
0e31c11e
1d9987f2
1c190799
50a56c09
4f24f7e3
0dce9c18
329a0cef
4f5c3007
039f0166
0bc540fd
676ca010
5752e1d3
73c54b16
79aea0d4
2b9d3b2f
00aad69d
091e8b06
143f9a1a
780b99e8
2d4729a4
09086afc
16c01076
4a52d3b8
1566aa0d
771ce8cc
416dbb48
054cb8c6
09ec72f0
6430acbb
5c575a0b
64f54006
4c0fbb0a
2855e37a
083d7ee6
009a0546
3e255571
231bfa20
1b977a1a
79841226
0538fccd
379d3674
4a7121f2
3a7fe5eb
04ae82d7
2b171a20
3dbc72ff
1d7b3864
78a03a11
329534cf
11ae6e18
26dcd066
450fde84
67321e0c
5ab17f4b
2e74445d
5bc18924
13c50ba0
3a705c56
4226c579
2781198b
79cdd072
0305d780
107f77e2
7f92f9c8
6e833828
154b3815
0cc6b151
4aa84c7c
556bcece
72014e5f
24cc917c
318596c0
5e53a937
6d5523af
1fa2d470
719f74a4
04d11b41
78a4f089
17c67e9e
51b9a1a5
56bc25b7
1427431f
3028af06
4a7b851f
032149a3
5ae59ba4
63e19ee4
7bb3fb4a
2e2b8d02
1fab9074
30d8af3a
1b9998ac
784224f4
60fc321c
2163513f
4aa0fa94
460d0ea9
6bb6db95
4a197180
3626d100
357bf371
385066fe
276a622b
77b0d912
07468e35
150fbee6
373d5ba5
20f4dd87
1b8f7842
39a967ce
6c920233
5c06c554
6b5d5ea1
6bd7e97a
23836b12
21170efc
5ccb4c43
457af203
7a869385
6f8e29d1
2f7cb04a
34a3e7f4
49656edd
1d6cef85
5c361472
3f573d6f
4e8f8711
71c0dfaa
21ec28ad
7c30952b
34498407
2e362ed5
65dd65b0
1c9b5c88
06387f66
02619c84
77554a31
35460277
378418fe
72ba8158
3dbf5adb
29114379
338f85ff
2ad1e6ca
17274a6a
07306984
02a342a2
14825b8c
5ed863a2
20b10e1e
428eec89
66aeeb5c
31829f57
2d531bd3
36607216
6b3b45f1
2f935fb4
11c67726
6ba79035
5bc79bc0
74e9c834
1f21147f
496b03e1
4137b185
1ed976d2
24709259
5dad7188
680388ec
41c822d2
1e8373bf
50bd9b65
3c7940b2
453bf2f2
20e8f098
5f901787
53f41ad5
2d20ad77
104c4a3d
0fd23381
61fd06e2
696275fc
7594562e
76c3bebc
3f0616d9
6c48147d
7447e451
512b726e
30a35eca
6dc90e02
72a93123
10ffabb3
4943671d
5fe8967b
127e1a38
7df2b7cc
19d2f545
1c9228ed
631873ef
2d723f0f
54b8fec2
4d052448
5a2009e9
654f25ec
0e12bda6
650cafe3
48ea5fd2
1e7dd286
283eab03
440a58d0
56b82a5e
14b72282
4f45834c
0c126058
24aec42b
4deaac83
664f2340
7cb08f76
784f88bc
17080df7
6d4428f1
0ab3dbbd
30c14cf8
011abbbd
1c1bafae
186b5a9a
2a8011ae
6c23dce9
71da8f3e
4a62ead6
47de1bbb
1fa4a141
4fbc7bf7
1a48d4ad
48179a33
4662a3fc
6ac76279
7a1c0fb7
359dea6b
06681245
5881841f
7688bf97
4a826927
6af1c779
1ef98879
46be501a
053a4769
712b4f61
401672aa
438f40c6
502e01d1
1b8baccb
4b184ef4
4be62f01
006fe1ba
51618c66
3af916e2
388af08f
31ab7540
3e1fcf31
4bc5d1b1
5c815870
4a1e0e78
34001c7b
65b79abc
3f369c67
5c3ed258
7c0bd225
407d12a3
460407e3
08d35e9a
7c9c34c1
37bf2899
09c25fd2
1f971ec9
26b1bd20
1928ca8d
5d244a37
166f89b7
1abe4c21
50dae93f
7482b33f
23ab4f12
062684d0
142ab960
40df890f
55b77d06
5d514299
6336c693
35a4987e
71c46aa1
3f2201c7
35335381
44af180f
1382402d
4983d86f
7ab690b1
38e8b72d
6ff97090
4711e43d
4e9f6212
0942ade9
4f2d7c8b
392ff86c
1a2409be
43790ceb
5252780b
357fbb01
023a1aa3
2af646a8
18ab15a3
19dec256
6abf629e
6c04edc5
159fea9e
07770201
78d4f2a8
140c1954
3263ae05
5edf4105
576b3b8e
6c987527
543ec2d9
68f8dd26
294c458f
1efa27b0
1daa9b6e
5fc3e741
3344d560
783ebb71
5c7e0a85
27d9fb73
50174672
4c5527f5
2c995151
3b9f0386
6960b709
1f362afc
37d01fad
7d028a94
057fe5c2
529221dd
7c092593
05986031
15a96391
364f97d6
7bd68d5b
51267da3
11669e57
68d37309
1014e4ea
0b75d5d3
5801c9fd
49bdcaa5
436daf65
57e67854
34e175d7
580302ff
1537b62d
6c007300
0ad504ea
5578f2b9
6e15315a
1b0341c2
1a8ffc21
78848300
556ad467
4d6c7f9e
62e2cfa6
4d205e02
21ed5e73
709e1456
667bddc9
54b4712f
5ee15fa6
029b8c73
4e98f64d
419f252d
75a5431c
40470f42
29d01ee6
4db758e3
6ddf55d5
6517d631
51538412
5739201e
7796541c
3887a84d
0a7895da
42a1eda6
5fe9d4cb
79bc8bbc
198732bd
7e49e383
4be70286
31478c57
2cff0303
30306bee
4605cb1d
54c97330
6a58c6c2
7055df27
2101e7ec
28577fa1
055e1e95
4e12f899
61d77a76
516e28fb
267dbac5
51e3450d
5d81616b
59ae4163
185e6894
06afca37
66ab55c9
46010770
5c557a3c
20ad3015
74d85757
088dd44f
7b4bd9a1
745b44a2
5e592777
0d19c83b
04a2adeb
2afebdac
3bf4966f
37625f5e
1bfa14c8
70c6c3a3
7b90047b
4cb90482
017ca3ac
7e96e5f6
5c3d67d4
1f169f80
6b2912f0
4ab45c7b
19f4d6a7
2d0c0078
449f5081
013fc654
23cbc080
216cf78b
23ccb290
08164fb5
37fd8bef
5e7665dc
5d0f1a04
1118c18d
017ab0ff
4c7b2a24
29917a0f
1410584a
0ff53d1d
04e5a749
1af45e02
555252c4
42347698
36e14b0c
1eb64af6
03b5f9e2
0beaa96b
63036e44
0c5d89c5
15435930
2ff97837
39db4750
39c8dcb2
28d8b8f1
3085ede3
786d83f6
64b4cad5
572214c4
29b93d09
1794bc32
3d9ea2ab
5fbaf023
23160c15
37d48b91
3aa6b5ad
3076bae4
2efe2694
0c6733db
3eeaaec1
714650c5
5593f99f
643db52f
0e92c0ea
4ad3c39c
151507ab
46439d93
7c4f70f8
3fc00b2b
35967f48
692c9592
3c75b9d8
4ac79c26
73ddd7f5
275f1fc4
58297a2d
291e8468
02298b48
369cfb57
37428ae6
6476f403
56285023
119cb766
089c4ed6
6d001432
51be2d6f
7aa4b29e
5dc573e8
14ada579
5c402fff
0553689a
5f62149d
556aa6c6
6a3e58d2
0a288465
3c75d73f
1cd168c2
6f716bbf
3c2457de
3a2a8430
40d57170
6d7ab4cd
3ceba80a
06853ab8
59658b5e
2feb0d12
793941c8
20b840f3
22509de8
76bf73f4
426209be
24506e8f
0557a061
741a6e7f
21d21b66
290f6dbb
5f766902
2b68f44d
63704941
17b5717b
30dd1a90
32d9c083
43e36a10
46ba57b4
2461cacb
41cb28e8
30ed96f1
3ce345b3
340b7158
50e9edd4
64ac6714
4a61af90
37348c52
0ddf9f10
6a7f2a36
2fab02f7
3431af1c
19761c1a
30bcf88f
5ea803d2
2945b858
1921c19d
2bda4033
327123dc
0f01a9e9
550e3da0
3fa56fea
7a5b6ce3
5eaef558
3b2430de
085f4a4d
43c59457
529dbfbc
265f071e
4ca05853
080b5602
7d361fd2
044e00a8
0bcfe295
35d6e4ae
1c631fca
67d14aaa
31c3a39d
34a98968
33116bdf
47b26aab
2d82e99b
19f3eaf8
25016144
26e40e2e
3ae7e645
4fd8117a
007f365c
77064485
6e499ea8
783efa7a
4651995c
4490706c
51c5f8c1
12dd943d
6c33c27a
44897731
1ac71aa0
4557fd5f
35c9bf89
3a6dc2e1
7152129b
0f62b27c
540f003b
0d2ee41e
14a93acc
07aea5ab
2de19eb5
1aa6f926
73da89b5
098946b1
581f9171
17418b57
6b47e870
5865a60c
48a1491c
07d12dfc
6244b63f
6291245c
3db84a73
51892dbf
33e2f7bf
7522f7b2
33f5f31b
449429d8
53ef36e0
732ab84a
3187df67
0c01f405
22487579
2eb8a8d2
3475e73d
3a107f55
7e7050b3
4e8097f2
284bc3d0
07062dc1
1941204e
5d149466
4c6baf66
6dcfdf69
5663ae49
5dc361e7
43395c4b
77745328
79c8e649
01020e35
75afb2fc
343b30d7
3ef9b619
5ce45601
6c33998d
17db7fae
621d298a
2ca2aa9c
41f1e196
1dc05c3a
41713aa6
55f05ba7
14fd9886
79b3ef7b
4bf30d60
20ecc7ec
4554e67d
0889e68f
743885f7
3fd7ad1a
354aa689
0f6ea4e5
091b19bf
3c5a9c62
2b92c13e
24f297c3
4a356415
771fc3ee
5c7ee938
6976edf9
69208e02
1d18306a
3112c989
63a6a9cd
4def0e01
3264404a
357266d5
024f486b
72e72280
6dcea701
52d19d9e
446893a7
5212ba1d
05d0cd56
3cba89cd
26eb0fa9
32e820f7
7de539c5
3addba64
73837900
4fd96c98
15888704
7b3c1a04
77d56af4
69da4527
58d71dc2
70155fbb
315b2836
4016f297
0da3faa0
626d906b
014fdc46
1f59590c
300d65a2
174087af
0da3fe55
0ac0a599
703bc0fe
11e099b1
657a5436
28b17165
7eb05e1d
3e2daa2e
1df74f2c
13781686
7c08a690
6d31a417
2a7f9e55
6382e093
104b9793
730f19ad
768e8416
12394a8f
6b1f4777
316a26c1
1459484b
1acd63d6
266f73bd
18079821
4bbeec67
6f2b93f4
04ae6843
520485ad
169074a4
58558c51
2b62cecb
7403708a
3a4ceae9
221a5c13
4f981c3e
44976b8c
5b0db7eb
4e93bd74
319d0ced
237c68bd
6f550ac2
0cef2503
02c13f49
765e7ca9
33c9360a
6720e42d
613632b0
60d930e0
70f3f712
3d286743
49943e81
5ec636e6
45cf1344
6135e8c6
6ac3f0c8
3a99befd
4c3df067
292f5700
43e059bc
300664c4
3966f8f1
3d753659
72678e01
7b4f6ce1
4298af51
0866c859
266a5640
7ac04fcb
3428a18c
35bbdb7f
3a379cc5
06f63715
3e6de792
606e885d
0968708f
40d2e763
0126eae5
7f6b058c
21562222
6c407af6
681cf997
2104206e
6465c405
68dbadd4
660b9017
7a50ab18
0b1ded6c
0db171f2
0dfc7cd4
666a2fd6
3a5e1394
4bc4c1eb
228b40c1
1f3b7575
5e631bdc
4b0748e5
6bf13820
2da637cb
130161fb
58fbec2c
04a9a217
4407ae30
63288fbe
43248f41
196526f3
697a7cd5
29be2434
3069997f
03ee3802
7d33caf3
3575a001
0597c3b2
114f5c47
34a58502
28616121
6ed6c586
01934cae
284e1e3e
7bef82b7
0f87c6cc
52dc64b4
2e8f6383
610d97b3
5a5f745a
2ea25cef
071de2db
7c39a577
5d947349
6096761b
7450ef8b
358ee368
4bee3df3
34e0e094
21a0e9cf
08093f76
7ea382b8
0a64554c
513b0d7d
013a3141
6f2b7148
319dc7df
576979bb
40d86017
31cde3d7
402877e5
45f3b6ab
0de65307
44c95c8c
2027953b
1c70fa6c
41ac6db9
48971a47
7e82ffd3
590cc540
3e9cb059
1f1c900b
5cba870c
6ab2cba8
6c0e44d6
4fdc28f4
577e3130
78b2e6d7
5ee4cb72
4b3105c2
58dd81fe
02abeb46
6f88d1f4
647355cf
66bb5618
66c7121e
041c95fd
08e80469
038e817a
0b72a5c2
437631b3
5ce42d82
2344dca9
18f4bc87
454a9771
42e41699
783c338d
08c0f362
35b46682
6917c7b6
68f9ccef
0503579d
32812dda
39c686f4
43faf21a
35c8e4da
672602a3
46a25c7c
0df0d27b
609ab5c1
78b63296
21a96516
384646a4
3a3e8056
6418fc57
17105cca
6835df76
5fed1a09
1faa8f12
71e1efab
516dc74d
651ff627
6e6b5059
1564725f
6b87310c
3775eb39
74e1bbe2
75435af7
482d719d
32f09da6
291eb91d
6aa7109f
08ff3c1a
0e63b255
30bba988
348f4b55
3cc01478
73a463c5
10785b93
5a5499ac
00364f9a
181d1a1f
5f88d1ee
5fbe2d59
38e9f27e
1b8746db
617ce7fb
1584a202
5a773d94
7bc54d8c
34ca8e04
6b1ee59f
7867c27d
5e7869b1
6e3f0e12
169bd322
4dc08459
13fd05f9
4375958a
324d16e7
03199c27
60965b78
3e7ce44b
788eb792
7eaf8c57
511aee3d
40055888
79e574b7
241e93ba
5651066e
0ebc43fd
739e6f60
4c23f5e2
1c231da3
413552d9
5de892bb
3e62e740
0302ce8f
3a1440a5
6e94902c
4ff9a7e0
664b4bda
03250bf1
5221b30c
1499f4df
4cf914eb
10a1f197
5c01d592
7302090c
445fa146
660c0f2a
4ea54139
20076238
52f44a84
44b67be8
123f9cd4
0fdd39cc
1f0a63ad
02acc8a2
4e1943db
1e6645e6
6bfa7bde
71a85f89
025ec5d0
5a318053
1b427081
0abd2571
0f8b2b8b
6fd5f9b2
51980daa
4414730c
017403eb
43bec672
6cc9aae2
55993c6d
30e198b7
04afe598
341705ae
3e826457
0428baff
6016b964
68331daa
37075b83
1d95fb38
40cb3632
46912c10
5e0b5531
2bba9388
3ee548b8
49168c78
64b4d270
3f0bef0f
563a6dd7
3047e066
4b866546
3a77d5f4
0fdc239f
05b8101e
504e32fa
36726979
4388d2ed
47fc98a3
3f137891
31e8aeb4
677c7fba
0ae55dbe
4808dcbd
1f74c05e
17934be4
7a9cf463
4edf527c
08d10cdc
3305f4db
2abc85ee
6574e442
0f9e0ecb
5c719014
68044d3d
313f8e14
0ceaf01c
5b2fd1ea
531fe0c3
40cd202c
6d6b2c9b
7b89c7b4
53b45522
06df19ac
149174f4
7ba012ab
381708f4
64cd6625
0ef8a90a
5dc3218c
60ef0ba6
548d6bd1
35b0be04
605be479
25e887ca
106debb8
60f34fb9
0403ae2c
08cdba32
21ae92be
5cd5cb51
081ffc2f
63b6708a
2e448572
7863a117
153dc2bb
09fb6039
6a0a9d4a
5b15aa5b
78c62b63
0e4c1e1e
01999a4d
48dbf27f
5ad728b8
36a53d8a
136c5e38
6881a04b
762d2776
68d901da
14678a68
56c3871f
440f03f5
436c1033
543fbd6a
2e08d7c5
5b28fe3a
627a6e3a
5d9cda87
6c428fe1
2808e96a
6434269d
08bce648
0c0e50db
464e18c0
1a5bfcf3
2a9d19ab
48816422
72e95656
101aae18
3f1adfc5
050a9682
2fd716ef
22d95c0f
6b520ed5
66d88b92
0081db33
602f6be1
703a7737
50141943
6854c4b8
78678841
74c990f7
3cf14faa
26946ec9
43bc2a4a
38209984
7e284ce2
672d8124
35b52a82
71aa5c30
39d1e724
725c7f66
6cf8506b
49990a13
5613a0fe
2c525f77
58d724e9
21ffd6cb
7dc7ee98
567412e5
75b6ae25
3c17cc0b
076d3424
4fdce06d
36872687
5783e1f6
0f514e33
57563728
6e5845db
69cf193a
61669005
49273359
7cf53132
6903250a
11300571
3a001e05
33e892e3
52cfb753
08912abe
0062340d
32df5674
0b31039f
14ae64d0
19d0bef1
38066f61
1fbdd7e4
293e3a94
45057e22
37c35b2b
76ea8b59
262d246f
591defcf
3790cf1f
33ba7c1f
79470895
3c95ffc9
58fa07a4
7c8b6f2a
0614d19b
56845cd4
6273d022
6c4077f6
11a59bae
1f96c741
5ab109ca
0fc99a68
23bb09af
398c0c4c
0f215199
187b0805
4cf2658e
46a73353
0685af88
150ad154
747cf766
4b36d4c7
79abc31d
63914808
5b050a32
05f2bb59
7f6ae0e2
4520b2c0
223d6666
241b998a
4ce69bdb
7b8b03b6
0d0b3138
0ca3a62e
33f0af7d
0e74ebd4
75e8b233
418d1ff8
31be7313
1bc85129
3144bc23
51b376f3
6460fa68
06382114
0247ef8a
4ac9ccc0
7aff5d8b
46a930c8
208552d0
3214f098
511b0b16
2208ca6a
467d6850
6c091a9b
1d50a3c2
63a0101f
4faf912b
73bc9937
07e60273
74c0168e
24170045
34f4f447
150e0319
3b03adf3
4d82f724
1053b7ed
308a8d1a
6221be8f
67b763bc
43135aae
01cb2849
098f9318
0cc1a783
06765508
33f731ea
52743b57
01250dff
69fd8e72
28124608
737d1d13
09fafd84
0f05aec0
2f6f07f6
66c0c535
22787cd6
7540fdda
4c025ea2
7fee3ef6
3342cc31
024324a1
2009f233
4f5c9c81
71abf692
537f1754
426d2914
07ce50af
02a2ba49
68426798
33f1162f
130b97c2
5b506dae
180952ac
336982c4
0cbb84dc
68a95a4d
3a68ae2b
32795a67
1ebd30f5
45cb75f6
37be4096
44f2a608
7d6b8147
2472194a
6617573c
40ee34b8
084029bf
7495d149
1d8a6037
34882e52
05036071
5a6b1810
525b4a59
1a266559
0feea906
5abf5085
62ae78ae
67727e69
59688037
2efc2bb3
7a24913b
34c732c3
2d82dbb0
01501ea7
66802968
28e5155c
7c1ad43c
5e66bce4
0f658ae3
6efaea7c
009cd0cf
6446f9fa
088a2435
146e688a
6af7f8fa
5ab9a6e2
03e9b9bb
3789b693
172a965f
17105c67
77e91aa3
7d20c3e8
28d4780c
07247186
033abdad
3a445a94
27027b35
13c5f9d4
382846dc
73c5de07
05717870
38521d4b
40273530
490fe0ce
0eeb7656
2691bcfc
54c21e05
2cc1bad5
527c0d44
64b769b4
5980b605
3471369c
06f68d69
7a7c1f88
54547137
686565a7
6a463c9a
5e96c4c6
0f91763d
5dbc1d7b
0a7ed43d
784a3b40
6df9ba92
00eb1a53
64924764
460e0c27
6806cec7
0551f636
57c2ffab
268c1faf
0ab5d068
06cc7fa1
14700c69
4a7ed6ee
2b8c9025
67b03f36
4b3a1f00
6b6f01a8
1f42b39e
1a9b92a2
72df1a79
4d5feb76
6e77bf48
07d36900
0585e73d
4c997914
70cee261
5708d105
4551db27
3f7ead2b
4298d518
729fec15
7f82c77e
1f0228ba
4370892f
1cb6c405
394c9fc8
4b616365
6a95e4b9
3002cd2f
4e5fd043
47fb18d4
18006298
15767d06
2c4cc0f2
6e6b5f50
6bf8f6b3
2a3ae747
02848018
65d2390b
4e9fe948
75d98ddd
6e571947
00cdbb0d
48b6d19d
13fa92b8
4331a9d5
3d936ca8
392cf67c
0ee8c05d
0413919c
57b6044c
003f34fc
20d007b9
6c7299ec
6cd44c80
249d9a34
5a1ae095
51836e5f
5e2a5e7a
0ec5fd00
6de59f30
0a2b80e0
1c847f74
7edeae5b
21a8e812
61e8b7b7
29a8159e
1bb8bb40
109cde98
7aea680e
029eecd4
7a6c2514
5996346b
22317a84
0b007c19
75dba659
57a49481
5840f100
150fd56e
1a3a0a4b
412ffabb
7418c86d
3fbb4c15
4a4bc748
51077751
3b486c11
2eab84b4
591c9cb2
33808751
46615703
3e48f517
4758cf22
0afd3bf8
4055b916
4f79aa2d
26a1187c
01aa640e
02a44487
1e20e772
290b60e4
4c7d509c
6e24e334
1fd3676f
66bec216
7333c6c2
5f7bf1bc
7015c368
5fc5b070
2725cbe6
36f51692
5a9aa815
24d5cb6c
6e4c619d
2a76036e
37494bf2
31587876
4373ffec
31151641
1266cbcb
793667bf
07356110
05d59db0
1ecf04b7
3d98db40
3078fa38
57ac30cd
3c27488c
532d5508
4d7d03ea
1228dc5a
029ed68c
161179ae
5bb62eee
69b14110
2c6c1d57
52a64074
0b8e95d0
27465ade
66e39809
4cccf459
09a66243
1462089d
643bf871
64641f50
719fbdaf
5ba02518
563a80ba
61bdb60a
2aab1653
1af379a3
0039314c
5bf4a2b1
4ecd7460
18db5e72
07dd543a
2e9c056f
172e4333
799ea655
46ffbc52
1d72ea4a
0b30b0e9
3894f5e1
6039c84c
73b79832
5a8748db
688f06de
7bdbe878
226ec1db
2de4a8d7
62baf672
4dd6a275
2f16ed01
338e2f80
1912f02e
7aaa2207
535e8b6b
1d01dae0
5701dc13
28db890d
4a047422
0b688419
677f13a2
12921bad
1abbc558
5cb61eb9
54c80910
7ccf0d45
577ca825
097f07bb
3fa93d79
6c8e14af
46617413
02c9c046
70ba68d1
50e07a51
2630b594
5c1d0450
4d3c5223
714aa4d4
66893265
2ad41b39
1fafe0c2
10fd4c99
6ad620ad
1736d674
1a41da23
169e8f94
200d2f27
4daf6eed
627699cc
7ffdb507
7cd355ad
0a36f62f
574cdbc7
009bb977
334ca461
7fc39f87
